{
  "target_vocab_size": 1024,
  "vocab_size": 674,
  "base_chars": [
    "\n",
    " ",
    "!",
    "\"",
    "$",
    "&",
    "'",
    "(",
    ")",
    "*",
    "+",
    ",",
    "-",
    ".",
    "/",
    "0",
    "1",
    "2",
    "3",
    "4",
    "5",
    "6",
    "7",
    "8",
    "9",
    ":",
    ";",
    "=",
    "?",
    "@",
    "A",
    "B",
    "C",
    "D",
    "E",
    "F",
    "G",
    "H",
    "I",
    "J",
    "K",
    "L",
    "M",
    "N",
    "O",
    "P",
    "Q",
    "R",
    "S",
    "T",
    "U",
    "V",
    "W",
    "X",
    "Y",
    "Z",
    "[",
    "\\",
    "]",
    "^",
    "_",
    "`",
    "a",
    "b",
    "c",
    "d",
    "e",
    "f",
    "g",
    "h",
    "i",
    "j",
    "k",
    "l",
    "m",
    "n",
    "o",
    "p",
    "q",
    "r",
    "s",
    "t",
    "u",
    "v",
    "w",
    "x",
    "y",
    "z",
    "|",
    "~",
    "£",
    "©",
    "ö",
    "–",
    "—",
    "‘",
    "’",
    "“",
    "”",
    "•"
  ],
  "merges": [
    [
      "e",
      " "
    ],
    [
      " ",
      "t"
    ],
    [
      "i",
      "n"
    ],
    [
      " ",
      "a"
    ],
    [
      "s",
      " "
    ],
    [
      " t",
      "h"
    ],
    [
      "e",
      "n"
    ],
    [
      "e",
      "r"
    ],
    [
      "t",
      " "
    ],
    [
      "d",
      " "
    ],
    [
      "o",
      "f"
    ],
    [
      " th",
      "e "
    ],
    [
      "o",
      "n"
    ],
    [
      "y",
      " "
    ],
    [
      "a",
      "n"
    ],
    [
      "r",
      "e"
    ],
    [
      ",",
      " "
    ],
    [
      "o",
      "r"
    ],
    [
      "o",
      "u"
    ],
    [
      "in",
      "g"
    ],
    [
      "l",
      "a"
    ],
    [
      "e",
      "s"
    ],
    [
      "of",
      " "
    ],
    [
      ".",
      " "
    ],
    [
      "a",
      "l"
    ],
    [
      "o",
      " "
    ],
    [
      "t",
      "h"
    ],
    [
      "t",
      "i"
    ],
    [
      "er",
      " "
    ],
    [
      "a",
      "r"
    ],
    [
      "l",
      "i"
    ],
    [
      "d",
      "e"
    ],
    [
      "s",
      "e"
    ],
    [
      " a",
      "n"
    ],
    [
      "c",
      "h"
    ],
    [
      "r",
      "i"
    ],
    [
      "e",
      "d"
    ],
    [
      "ing",
      " "
    ],
    [
      "o",
      "m"
    ],
    [
      "l",
      "l"
    ],
    [
      "p",
      "la"
    ],
    [
      "s",
      "t"
    ],
    [
      "e",
      "d "
    ],
    [
      "in",
      " "
    ],
    [
      " a",
      " "
    ],
    [
      " t",
      "o "
    ],
    [
      "h",
      "a"
    ],
    [
      "s",
      "u"
    ],
    [
      "a",
      "m"
    ],
    [
      "a",
      "t"
    ],
    [
      "n",
      "o"
    ],
    [
      "J",
      "an"
    ],
    [
      "e",
      "m"
    ],
    [
      "e",
      "s "
    ],
    [
      "f",
      "or"
    ],
    [
      " an",
      "d "
    ],
    [
      "c",
      "e "
    ],
    [
      "h",
      "e "
    ],
    [
      "h",
      "o"
    ],
    [
      "ti",
      "on"
    ],
    [
      "’",
      "s "
    ],
    [
      ".",
      "\n"
    ],
    [
      "a",
      "t "
    ],
    [
      "d",
      "i"
    ],
    [
      "en",
      "d"
    ],
    [
      "en",
      "t"
    ],
    [
      "h",
      "i"
    ],
    [
      "i",
      "r"
    ],
    [
      "m",
      "a"
    ],
    [
      "q",
      "u"
    ],
    [
      "w",
      "a"
    ],
    [
      " t",
      "o"
    ],
    [
      "al",
      " "
    ],
    [
      "b",
      "u"
    ],
    [
      "e",
      "v"
    ],
    [
      "h",
      "er "
    ],
    [
      "of",
      " the "
    ],
    [
      "pla",
      "y "
    ],
    [
      " a",
      "ll"
    ],
    [
      " a",
      "s"
    ],
    [
      " a",
      "t"
    ],
    [
      " th",
      "at "
    ],
    [
      "I",
      " "
    ],
    [
      "an",
      " "
    ],
    [
      "b",
      "e"
    ],
    [
      "de",
      "p"
    ],
    [
      "e",
      ", "
    ],
    [
      "e",
      "f"
    ],
    [
      "en",
      " "
    ],
    [
      "i",
      "t"
    ],
    [
      "k",
      " "
    ],
    [
      "l",
      "d "
    ],
    [
      "l",
      "o"
    ],
    [
      "r",
      "a"
    ],
    [
      "u",
      "n"
    ],
    [
      "ch",
      "i"
    ],
    [
      "dep",
      "end"
    ],
    [
      "depend",
      "en"
    ],
    [
      "e",
      "c"
    ],
    [
      "er",
      "s"
    ],
    [
      "i",
      "c"
    ],
    [
      "i",
      "s "
    ],
    [
      "l",
      "d"
    ],
    [
      "o",
      "o"
    ],
    [
      "r",
      "o"
    ],
    [
      "s",
      "i"
    ],
    [
      "t",
      "u"
    ],
    [
      "w",
      "or"
    ],
    [
      "I",
      "n"
    ],
    [
      "Jan",
      "e "
    ],
    [
      "c",
      "u"
    ],
    [
      "d",
      "a"
    ],
    [
      "en",
      "t "
    ],
    [
      "g",
      "h"
    ],
    [
      "i",
      "th"
    ],
    [
      "m",
      " "
    ],
    [
      "m",
      "e"
    ],
    [
      "pla",
      "y"
    ],
    [
      "u",
      "st"
    ],
    [
      "'",
      "'"
    ],
    [
      "A",
      "ust"
    ],
    [
      "T",
      "he "
    ],
    [
      "al",
      "l"
    ],
    [
      "b",
      "y "
    ],
    [
      "bu",
      "t "
    ],
    [
      "c",
      "e"
    ],
    [
      "c",
      "re"
    ],
    [
      "ch",
      " "
    ],
    [
      "es",
      "s"
    ],
    [
      "f",
      "re"
    ],
    [
      "f",
      "u"
    ],
    [
      "h",
      "er"
    ],
    [
      "h",
      "u"
    ],
    [
      "in",
      "dependen"
    ],
    [
      "n",
      " "
    ],
    [
      "n",
      "o "
    ],
    [
      "ou",
      "t"
    ],
    [
      "p",
      "e"
    ],
    [
      "r",
      "e "
    ],
    [
      "s",
      "e "
    ],
    [
      "w",
      "ith"
    ],
    [
      "y",
      " a"
    ],
    [
      " ",
      "s"
    ],
    [
      " an",
      "d"
    ],
    [
      " th",
      "e"
    ],
    [
      " to",
      " the "
    ],
    [
      ". ",
      "In"
    ],
    [
      ";",
      " "
    ],
    [
      "Aust",
      "en"
    ],
    [
      "Jan",
      "e"
    ],
    [
      "M",
      "r"
    ],
    [
      "a",
      "g"
    ],
    [
      "c",
      "on"
    ],
    [
      "chi",
      "ld"
    ],
    [
      "d",
      "s "
    ],
    [
      "e",
      "ar"
    ],
    [
      "e ",
      "th"
    ],
    [
      "ef",
      "f"
    ],
    [
      "ers",
      "on"
    ],
    [
      "es",
      "t"
    ],
    [
      "f",
      "ic"
    ],
    [
      "for",
      " "
    ],
    [
      "gh",
      "t"
    ],
    [
      "i",
      "s"
    ],
    [
      "i",
      "t "
    ],
    [
      "in",
      "t"
    ],
    [
      "k",
      "e "
    ],
    [
      "l",
      " "
    ],
    [
      "l",
      "u"
    ],
    [
      "l",
      "y "
    ],
    [
      "no",
      "t "
    ],
    [
      "on",
      " the "
    ],
    [
      "ou",
      "ld "
    ],
    [
      "ou",
      "t "
    ],
    [
      "p",
      "l"
    ],
    [
      "s",
      ". "
    ],
    [
      "s",
      "ho"
    ],
    [
      "s",
      "t "
    ],
    [
      "s ",
      "of "
    ],
    [
      "se",
      "l"
    ],
    [
      "u",
      "c"
    ],
    [
      "v",
      "e "
    ],
    [
      "wa",
      "s "
    ],
    [
      "y",
      "ou"
    ],
    [
      " ",
      "or"
    ],
    [
      " at",
      " the "
    ],
    [
      "'",
      "s "
    ],
    [
      ", ",
      "I "
    ],
    [
      "-",
      "-"
    ],
    [
      "-",
      "t"
    ],
    [
      "Austen",
      "’s "
    ],
    [
      "J",
      "eff"
    ],
    [
      "Jeff",
      "erson"
    ],
    [
      "a",
      "c"
    ],
    [
      "a",
      "tion"
    ],
    [
      "am",
      "e "
    ],
    [
      "an",
      "ce "
    ],
    [
      "an",
      "d "
    ],
    [
      "b",
      "li"
    ],
    [
      "b",
      "r"
    ],
    [
      "c",
      "o"
    ],
    [
      "da",
      "y"
    ],
    [
      "e",
      "t"
    ],
    [
      "ed",
      "om"
    ],
    [
      "ef",
      "t "
    ],
    [
      "for",
      " the "
    ],
    [
      "fre",
      "edom"
    ],
    [
      "ha",
      "t "
    ],
    [
      "hu",
      "m"
    ],
    [
      "hum",
      "an "
    ],
    [
      "i",
      "m"
    ],
    [
      "independen",
      "ce "
    ],
    [
      "l",
      "eft "
    ],
    [
      "l",
      "es"
    ],
    [
      "l",
      "on"
    ],
    [
      "no",
      "w"
    ],
    [
      "of",
      "fic"
    ],
    [
      "p",
      "o"
    ],
    [
      "p",
      "ro"
    ],
    [
      "p",
      "s"
    ],
    [
      "r",
      "om"
    ],
    [
      "r",
      "y"
    ],
    [
      "re",
      "c"
    ],
    [
      "re",
      "s"
    ],
    [
      "s",
      " a"
    ],
    [
      "s",
      "ti"
    ],
    [
      "se",
      "em"
    ],
    [
      "th",
      "er"
    ],
    [
      "ti",
      "m"
    ],
    [
      "u",
      "bli"
    ],
    [
      "v",
      "e"
    ],
    [
      "”",
      "\n"
    ],
    [
      " ",
      "T"
    ],
    [
      " ",
      "her "
    ],
    [
      " a",
      "c"
    ],
    [
      " a",
      "s "
    ],
    [
      " a",
      "t "
    ],
    [
      " an",
      " "
    ],
    [
      " as",
      " to the "
    ],
    [
      " at",
      " all"
    ],
    [
      " th",
      "in"
    ],
    [
      "!",
      " "
    ],
    [
      ", ",
      "w"
    ],
    [
      "-t",
      "ra"
    ],
    [
      "-tra",
      "de"
    ],
    [
      ".",
      "”\n"
    ],
    [
      ". ",
      "H"
    ],
    [
      ". ",
      "P"
    ],
    [
      ". ",
      "S"
    ],
    [
      "2",
      "0"
    ],
    [
      "E",
      "m"
    ],
    [
      "Em",
      "ma"
    ],
    [
      "a",
      "d"
    ],
    [
      "a",
      "k"
    ],
    [
      "a",
      "p"
    ],
    [
      "ag",
      "e "
    ],
    [
      "al",
      "i"
    ],
    [
      "all",
      "y a"
    ],
    [
      "ar",
      "y"
    ],
    [
      "b",
      "out "
    ],
    [
      "b",
      "y"
    ],
    [
      "bu",
      "t"
    ],
    [
      "c",
      " "
    ],
    [
      "c",
      "k"
    ],
    [
      "c",
      "om"
    ],
    [
      "child",
      "r"
    ],
    [
      "childr",
      "en"
    ],
    [
      "d",
      "am"
    ],
    [
      "de",
      "c"
    ],
    [
      "di",
      "d "
    ],
    [
      "e",
      "ll"
    ],
    [
      "e",
      "p"
    ],
    [
      "e ",
      "in"
    ],
    [
      "e ",
      "t"
    ],
    [
      "ed ",
      "in "
    ],
    [
      "em",
      "b"
    ],
    [
      "en",
      "g"
    ],
    [
      "er ",
      "c"
    ],
    [
      "f",
      " "
    ],
    [
      "f",
      "a"
    ],
    [
      "f",
      "er "
    ],
    [
      "g",
      "er"
    ],
    [
      "g",
      "o"
    ],
    [
      "ha",
      "d "
    ],
    [
      "ha",
      "ve "
    ],
    [
      "hi",
      "m "
    ],
    [
      "hi",
      "s "
    ],
    [
      "in",
      "c"
    ],
    [
      "ing ",
      "of "
    ],
    [
      "ir",
      " "
    ],
    [
      "it",
      "e "
    ],
    [
      "k",
      "now"
    ],
    [
      "l",
      "y"
    ],
    [
      "li",
      "f"
    ],
    [
      "li",
      "ke "
    ],
    [
      "lo",
      "g"
    ],
    [
      "lon",
      "g"
    ],
    [
      "m",
      "y "
    ],
    [
      "me",
      "an"
    ],
    [
      "n",
      "d "
    ],
    [
      "no",
      "t"
    ],
    [
      "o",
      "pl"
    ],
    [
      "on",
      " "
    ],
    [
      "ou",
      "s "
    ],
    [
      "p",
      "ar"
    ],
    [
      "pe",
      "opl"
    ],
    [
      "qu",
      "en"
    ],
    [
      "qu",
      "ite "
    ],
    [
      "re",
      "fu"
    ],
    [
      "ri",
      "ght"
    ],
    [
      "ri",
      "t"
    ],
    [
      "s",
      "ame "
    ],
    [
      "s ",
      "of"
    ],
    [
      "se",
      "quen"
    ],
    [
      "si",
      "d"
    ],
    [
      "su",
      "f"
    ],
    [
      "t",
      "e "
    ],
    [
      "t ",
      "of "
    ],
    [
      "ti",
      "v"
    ],
    [
      "v",
      "er"
    ],
    [
      "v",
      "o"
    ],
    [
      "w",
      "ould "
    ],
    [
      "w",
      "rit"
    ],
    [
      "wor",
      "ds "
    ],
    [
      "you",
      " "
    ],
    [
      " ",
      "but "
    ],
    [
      " ",
      "c"
    ],
    [
      " ",
      "ho"
    ],
    [
      " ",
      "of "
    ],
    [
      " ",
      "offic"
    ],
    [
      " ",
      "peopl"
    ],
    [
      " ",
      "w"
    ],
    [
      " a",
      "f"
    ],
    [
      " a",
      "m "
    ],
    [
      " a ",
      "d"
    ],
    [
      " a ",
      "f"
    ],
    [
      " a ",
      "s"
    ],
    [
      " and",
      " the "
    ],
    [
      " and ",
      "p"
    ],
    [
      " and ",
      "s"
    ],
    [
      " and p",
      "rom"
    ],
    [
      " and prom",
      "o"
    ],
    [
      " and promo",
      "t"
    ],
    [
      " and promot",
      "ed"
    ],
    [
      " as",
      " an"
    ],
    [
      " as",
      "su"
    ],
    [
      " as to the ",
      "g"
    ],
    [
      " assu",
      "re "
    ],
    [
      " s",
      "he "
    ],
    [
      " t",
      "al"
    ],
    [
      " t",
      "im"
    ],
    [
      " th",
      "o"
    ],
    [
      " th",
      "ou"
    ],
    [
      " the",
      "ir "
    ],
    [
      " thin",
      "k"
    ],
    [
      " tho",
      "se "
    ],
    [
      " thou",
      "ght"
    ],
    [
      " to ",
      "play "
    ],
    [
      "''",
      " "
    ],
    [
      ",",
      " at all"
    ],
    [
      ", ",
      "20"
    ],
    [
      ", ",
      "I"
    ],
    [
      ", ",
      "but "
    ],
    [
      ", 20",
      "0"
    ],
    [
      ", I",
      " assure "
    ],
    [
      ", I ",
      "d"
    ],
    [
      "-trade",
      ", I assure "
    ],
    [
      ".\n",
      "The "
    ],
    [
      ". ",
      "D"
    ],
    [
      ". ",
      "T"
    ],
    [
      ".”\n",
      "“"
    ],
    [
      "1",
      "7"
    ],
    [
      ":",
      " "
    ],
    [
      "A",
      "dam"
    ],
    [
      "Adam",
      "s "
    ],
    [
      "Adams ",
      "left "
    ],
    [
      "Adams left ",
      "his "
    ],
    [
      "Austen’s ",
      "b"
    ],
    [
      "B",
      "ro"
    ],
    [
      "Bro",
      "w"
    ],
    [
      "C",
      "on"
    ],
    [
      "D",
      "ec"
    ],
    [
      "Dec",
      "emb"
    ],
    [
      "E",
      "l"
    ],
    [
      "F",
      "a"
    ],
    [
      "I",
      " am "
    ],
    [
      "J",
      "o"
    ],
    [
      "Jane",
      "’s "
    ],
    [
      "Jefferson",
      "’s "
    ],
    [
      "Jo",
      "h"
    ],
    [
      "Joh",
      "n "
    ],
    [
      "John ",
      "Adams left his "
    ],
    [
      "L",
      "ad"
    ],
    [
      "Lad",
      "y "
    ],
    [
      "Mr",
      "s. "
    ],
    [
      "P",
      "la"
    ],
    [
      "P",
      "ubli"
    ],
    [
      "S",
      "t"
    ],
    [
      "S",
      "tu"
    ],
    [
      "Stu",
      "ar"
    ],
    [
      "W",
      "h"
    ],
    [
      "a",
      "b"
    ],
    [
      "a",
      "de"
    ],
    [
      "a",
      "s"
    ],
    [
      "a",
      "s "
    ],
    [
      "a",
      "tiv"
    ],
    [
      "al ",
      "of "
    ],
    [
      "al of ",
      "Mr"
    ],
    [
      "ali",
      "z"
    ],
    [
      "ally a",
      "bout "
    ],
    [
      "am",
      "s"
    ],
    [
      "an",
      "ger"
    ],
    [
      "an",
      "t"
    ],
    [
      "an",
      "y "
    ],
    [
      "ance ",
      "of "
    ],
    [
      "anger",
      "ous "
    ],
    [
      "at",
      "e "
    ],
    [
      "at",
      "ed"
    ],
    [
      "at",
      "ri"
    ],
    [
      "b",
      "e "
    ],
    [
      "b",
      "i"
    ],
    [
      "b",
      "t"
    ],
    [
      "be",
      "li"
    ],
    [
      "beli",
      "ev"
    ],
    [
      "br",
      "ary"
    ],
    [
      "c",
      "er"
    ],
    [
      "c",
      "es"
    ],
    [
      "c",
      "es "
    ],
    [
      "c",
      "k "
    ],
    [
      "ce",
      "p"
    ],
    [
      "cep",
      "t"
    ],
    [
      "ch",
      "oo"
    ],
    [
      "chi",
      "atri"
    ],
    [
      "child",
      "ho"
    ],
    [
      "childho",
      "o"
    ],
    [
      "con",
      "sequen"
    ],
    [
      "con",
      "sid"
    ],
    [
      "d",
      "uc"
    ],
    [
      "d ",
      "o"
    ],
    [
      "da",
      "y "
    ],
    [
      "dec",
      "la"
    ],
    [
      "di",
      "s"
    ],
    [
      "e",
      "l "
    ],
    [
      "e",
      "th"
    ],
    [
      "e",
      "w"
    ],
    [
      "e",
      "x"
    ],
    [
      "e th",
      "e "
    ],
    [
      "ec",
      "t"
    ],
    [
      "ec",
      "t of "
    ],
    [
      "ed",
      " to "
    ],
    [
      "ed ",
      "by"
    ],
    [
      "em",
      "p"
    ],
    [
      "en",
      "ti"
    ],
    [
      "en ",
      "f"
    ],
    [
      "en ",
      "in "
    ],
    [
      "eng",
      "ag"
    ],
    [
      "ent",
      "al "
    ],
    [
      "enti",
      "al"
    ],
    [
      "er",
      "est"
    ],
    [
      "er",
      "su"
    ],
    [
      "er ",
      "m"
    ],
    [
      "er ",
      "se"
    ],
    [
      "er c",
      "ou"
    ],
    [
      "er cou",
      "n"
    ],
    [
      "er coun",
      "t"
    ],
    [
      "er count",
      "ry"
    ],
    [
      "erest",
      "ing"
    ],
    [
      "ersu",
      "ade"
    ],
    [
      "es",
      "tion"
    ],
    [
      "es ",
      "of the "
    ],
    [
      "es of the ",
      "day"
    ],
    [
      "estion",
      "s a"
    ],
    [
      "eth",
      "ing "
    ],
    [
      "ev",
      "en"
    ],
    [
      "f",
      "in"
    ],
    [
      "f",
      "les"
    ],
    [
      "f",
      "o"
    ],
    [
      "f ",
      "you "
    ],
    [
      "fa",
      "th"
    ],
    [
      "fles",
      "h"
    ],
    [
      "freedom",
      " and "
    ],
    [
      "g",
      "e "
    ],
    [
      "go",
      "ver"
    ],
    [
      "gover",
      "n"
    ],
    [
      "govern",
      "ess"
    ],
    [
      "h",
      "e"
    ],
    [
      "h",
      "ear"
    ],
    [
      "h",
      "om"
    ],
    [
      "her",
      "e "
    ],
    [
      "human ",
      "flesh"
    ],
    [
      "i",
      "al"
    ],
    [
      "i",
      "d"
    ],
    [
      "i",
      "ds "
    ],
    [
      "i",
      "es"
    ],
    [
      "im",
      "p"
    ],
    [
      "in",
      " that "
    ],
    [
      "in",
      "e "
    ],
    [
      "in",
      "sti"
    ],
    [
      "independen",
      "ce"
    ],
    [
      "ing",
      " at the "
    ],
    [
      "ing ",
      "p"
    ],
    [
      "int",
      "en"
    ],
    [
      "int",
      "eresting"
    ],
    [
      "ir",
      "y "
    ],
    [
      "is ",
      "no "
    ],
    [
      "is no ",
      "les"
    ],
    [
      "is no les",
      "s "
    ],
    [
      "k",
      "ids "
    ],
    [
      "la",
      "r"
    ],
    [
      "la",
      "st "
    ],
    [
      "la",
      "ve"
    ],
    [
      "li",
      "m"
    ],
    [
      "li",
      "t"
    ],
    [
      "lif",
      "e, "
    ],
    [
      "m",
      "in"
    ],
    [
      "m",
      "o"
    ],
    [
      "m",
      "on"
    ],
    [
      "ma",
      "ke "
    ],
    [
      "ma",
      "y "
    ],
    [
      "mo",
      "th"
    ],
    [
      "moth",
      "er country"
    ],
    [
      "n",
      ", "
    ],
    [
      "n",
      "ing"
    ],
    [
      "n ",
      "c"
    ],
    [
      "o",
      "ll"
    ],
    [
      "o",
      "log"
    ],
    [
      "om",
      " "
    ],
    [
      "om",
      "ething "
    ],
    [
      "on",
      "e "
    ],
    [
      "oo",
      "k "
    ],
    [
      "or",
      "y"
    ],
    [
      "p",
      "ersuade"
    ],
    [
      "p",
      "in"
    ],
    [
      "pe",
      "ak"
    ],
    [
      "ps",
      "y"
    ],
    [
      "psy",
      "chiatri"
    ],
    [
      "qu",
      "estions a"
    ],
    [
      "qu",
      "iry "
    ],
    [
      "r",
      "am"
    ],
    [
      "r",
      "uc"
    ],
    [
      "r",
      "y "
    ],
    [
      "re",
      "d"
    ],
    [
      "re",
      "et"
    ],
    [
      "re",
      "p"
    ],
    [
      "refu",
      "s"
    ],
    [
      "refus",
      "al of Mr"
    ],
    [
      "ri",
      "end"
    ],
    [
      "ri",
      "v"
    ],
    [
      "s",
      " to "
    ],
    [
      "s",
      ","
    ],
    [
      "s",
      "lave"
    ],
    [
      "seem",
      "ed to "
    ],
    [
      "sel",
      "f"
    ],
    [
      "sho",
      "ck "
    ],
    [
      "sho",
      "w"
    ],
    [
      "show",
      "ed"
    ],
    [
      "st",
      "ep"
    ],
    [
      "st",
      "ruc"
    ],
    [
      "su",
      "ch "
    ],
    [
      "suf",
      "fer "
    ],
    [
      "t",
      " that "
    ],
    [
      "t",
      "a"
    ],
    [
      "t",
      "t"
    ],
    [
      "tu",
      "te "
    ],
    [
      "u",
      "l"
    ],
    [
      "un",
      "like "
    ],
    [
      "w",
      "er"
    ],
    [
      "w",
      "h"
    ],
    [
      "w",
      "hat "
    ],
    [
      "wa",
      "y"
    ],
    [
      "wor",
      "ld "
    ],
    [
      "writ",
      "ing "
    ],
    [
      "y",
      "ear"
    ]
  ],
  "stoi": {
    "\n": 0,
    " ": 1,
    "!": 2,
    "\"": 3,
    "$": 4,
    "&": 5,
    "'": 6,
    "(": 7,
    ")": 8,
    "*": 9,
    "+": 10,
    ",": 11,
    "-": 12,
    ".": 13,
    "/": 14,
    "0": 15,
    "1": 16,
    "2": 17,
    "3": 18,
    "4": 19,
    "5": 20,
    "6": 21,
    "7": 22,
    "8": 23,
    "9": 24,
    ":": 25,
    ";": 26,
    "=": 27,
    "?": 28,
    "@": 29,
    "A": 30,
    "B": 31,
    "C": 32,
    "D": 33,
    "E": 34,
    "F": 35,
    "G": 36,
    "H": 37,
    "I": 38,
    "J": 39,
    "K": 40,
    "L": 41,
    "M": 42,
    "N": 43,
    "O": 44,
    "P": 45,
    "Q": 46,
    "R": 47,
    "S": 48,
    "T": 49,
    "U": 50,
    "V": 51,
    "W": 52,
    "X": 53,
    "Y": 54,
    "Z": 55,
    "[": 56,
    "\\": 57,
    "]": 58,
    "^": 59,
    "_": 60,
    "`": 61,
    "a": 62,
    "b": 63,
    "c": 64,
    "d": 65,
    "e": 66,
    "f": 67,
    "g": 68,
    "h": 69,
    "i": 70,
    "j": 71,
    "k": 72,
    "l": 73,
    "m": 74,
    "n": 75,
    "o": 76,
    "p": 77,
    "q": 78,
    "r": 79,
    "s": 80,
    "t": 81,
    "u": 82,
    "v": 83,
    "w": 84,
    "x": 85,
    "y": 86,
    "z": 87,
    "|": 88,
    "~": 89,
    "£": 90,
    "©": 91,
    "ö": 92,
    "–": 93,
    "—": 94,
    "‘": 95,
    "’": 96,
    "“": 97,
    "”": 98,
    "•": 99,
    "<unk>": 100,
    "e ": 101,
    " t": 102,
    "in": 103,
    " a": 104,
    "s ": 105,
    " th": 106,
    "en": 107,
    "er": 108,
    "t ": 109,
    "d ": 110,
    "of": 111,
    " the ": 112,
    "on": 113,
    "y ": 114,
    "an": 115,
    "re": 116,
    ", ": 117,
    "or": 118,
    "ou": 119,
    "ing": 120,
    "la": 121,
    "es": 122,
    "of ": 123,
    ". ": 124,
    "al": 125,
    "o ": 126,
    "th": 127,
    "ti": 128,
    "er ": 129,
    "ar": 130,
    "li": 131,
    "de": 132,
    "se": 133,
    " an": 134,
    "ch": 135,
    "ri": 136,
    "ed": 137,
    "ing ": 138,
    "om": 139,
    "ll": 140,
    "pla": 141,
    "st": 142,
    "ed ": 143,
    "in ": 144,
    " a ": 145,
    " to ": 146,
    "ha": 147,
    "su": 148,
    "am": 149,
    "at": 150,
    "no": 151,
    "Jan": 152,
    "em": 153,
    "es ": 154,
    "for": 155,
    " and ": 156,
    "ce ": 157,
    "he ": 158,
    "ho": 159,
    "tion": 160,
    "’s ": 161,
    ".\n": 162,
    "at ": 163,
    "di": 164,
    "end": 165,
    "ent": 166,
    "hi": 167,
    "ir": 168,
    "ma": 169,
    "qu": 170,
    "wa": 171,
    " to": 172,
    "al ": 173,
    "bu": 174,
    "ev": 175,
    "her ": 176,
    "of the ": 177,
    "play ": 178,
    " all": 179,
    " as": 180,
    " at": 181,
    " that ": 182,
    "I ": 183,
    "an ": 184,
    "be": 185,
    "dep": 186,
    "e, ": 187,
    "ef": 188,
    "en ": 189,
    "it": 190,
    "k ": 191,
    "ld ": 192,
    "lo": 193,
    "ra": 194,
    "un": 195,
    "chi": 196,
    "depend": 197,
    "dependen": 198,
    "ec": 199,
    "ers": 200,
    "ic": 201,
    "is ": 202,
    "ld": 203,
    "oo": 204,
    "ro": 205,
    "si": 206,
    "tu": 207,
    "wor": 208,
    "In": 209,
    "Jane ": 210,
    "cu": 211,
    "da": 212,
    "ent ": 213,
    "gh": 214,
    "ith": 215,
    "m ": 216,
    "me": 217,
    "play": 218,
    "ust": 219,
    "''": 220,
    "Aust": 221,
    "The ": 222,
    "all": 223,
    "by ": 224,
    "but ": 225,
    "ce": 226,
    "cre": 227,
    "ch ": 228,
    "ess": 229,
    "fre": 230,
    "fu": 231,
    "her": 232,
    "hu": 233,
    "independen": 234,
    "n ": 235,
    "no ": 236,
    "out": 237,
    "pe": 238,
    "re ": 239,
    "se ": 240,
    "with": 241,
    "y a": 242,
    " s": 243,
    " and": 244,
    " the": 245,
    " to the ": 246,
    ". In": 247,
    "; ": 248,
    "Austen": 249,
    "Jane": 250,
    "Mr": 251,
    "ag": 252,
    "con": 253,
    "child": 254,
    "ds ": 255,
    "ear": 256,
    "e th": 257,
    "eff": 258,
    "erson": 259,
    "est": 260,
    "fic": 261,
    "for ": 262,
    "ght": 263,
    "is": 264,
    "it ": 265,
    "int": 266,
    "ke ": 267,
    "l ": 268,
    "lu": 269,
    "ly ": 270,
    "not ": 271,
    "on the ": 272,
    "ould ": 273,
    "out ": 274,
    "pl": 275,
    "s. ": 276,
    "sho": 277,
    "st ": 278,
    "s of ": 279,
    "sel": 280,
    "uc": 281,
    "ve ": 282,
    "was ": 283,
    "you": 284,
    " or": 285,
    " at the ": 286,
    "'s ": 287,
    ", I ": 288,
    "--": 289,
    "-t": 290,
    "Austen’s ": 291,
    "Jeff": 292,
    "Jefferson": 293,
    "ac": 294,
    "ation": 295,
    "ame ": 296,
    "ance ": 297,
    "and ": 298,
    "bli": 299,
    "br": 300,
    "co": 301,
    "day": 302,
    "et": 303,
    "edom": 304,
    "eft ": 305,
    "for the ": 306,
    "freedom": 307,
    "hat ": 308,
    "hum": 309,
    "human ": 310,
    "im": 311,
    "independence ": 312,
    "left ": 313,
    "les": 314,
    "lon": 315,
    "now": 316,
    "offic": 317,
    "po": 318,
    "pro": 319,
    "ps": 320,
    "rom": 321,
    "ry": 322,
    "rec": 323,
    "res": 324,
    "s a": 325,
    "sti": 326,
    "seem": 327,
    "ther": 328,
    "tim": 329,
    "ubli": 330,
    "ve": 331,
    "”\n": 332,
    " T": 333,
    " her ": 334,
    " ac": 335,
    " as ": 336,
    " at ": 337,
    " an ": 338,
    " as to the ": 339,
    " at all": 340,
    " thin": 341,
    "! ": 342,
    ", w": 343,
    "-tra": 344,
    "-trade": 345,
    ".”\n": 346,
    ". H": 347,
    ". P": 348,
    ". S": 349,
    "20": 350,
    "Em": 351,
    "Emma": 352,
    "ad": 353,
    "ak": 354,
    "ap": 355,
    "age ": 356,
    "ali": 357,
    "ally a": 358,
    "ary": 359,
    "bout ": 360,
    "by": 361,
    "but": 362,
    "c ": 363,
    "ck": 364,
    "com": 365,
    "childr": 366,
    "children": 367,
    "dam": 368,
    "dec": 369,
    "did ": 370,
    "ell": 371,
    "ep": 372,
    "e in": 373,
    "e t": 374,
    "ed in ": 375,
    "emb": 376,
    "eng": 377,
    "er c": 378,
    "f ": 379,
    "fa": 380,
    "fer ": 381,
    "ger": 382,
    "go": 383,
    "had ": 384,
    "have ": 385,
    "him ": 386,
    "his ": 387,
    "inc": 388,
    "ing of ": 389,
    "ir ": 390,
    "ite ": 391,
    "know": 392,
    "ly": 393,
    "lif": 394,
    "like ": 395,
    "log": 396,
    "long": 397,
    "my ": 398,
    "mean": 399,
    "nd ": 400,
    "not": 401,
    "opl": 402,
    "on ": 403,
    "ous ": 404,
    "par": 405,
    "peopl": 406,
    "quen": 407,
    "quite ": 408,
    "refu": 409,
    "right": 410,
    "rit": 411,
    "same ": 412,
    "s of": 413,
    "sequen": 414,
    "sid": 415,
    "suf": 416,
    "te ": 417,
    "t of ": 418,
    "tiv": 419,
    "ver": 420,
    "vo": 421,
    "would ": 422,
    "writ": 423,
    "words ": 424,
    "you ": 425,
    " but ": 426,
    " c": 427,
    " ho": 428,
    " of ": 429,
    " offic": 430,
    " peopl": 431,
    " w": 432,
    " af": 433,
    " am ": 434,
    " a d": 435,
    " a f": 436,
    " a s": 437,
    " and the ": 438,
    " and p": 439,
    " and s": 440,
    " and prom": 441,
    " and promo": 442,
    " and promot": 443,
    " and promoted": 444,
    " as an": 445,
    " assu": 446,
    " as to the g": 447,
    " assure ": 448,
    " she ": 449,
    " tal": 450,
    " tim": 451,
    " tho": 452,
    " thou": 453,
    " their ": 454,
    " think": 455,
    " those ": 456,
    " thought": 457,
    " to play ": 458,
    "'' ": 459,
    ", at all": 460,
    ", 20": 461,
    ", I": 462,
    ", but ": 463,
    ", 200": 464,
    ", I assure ": 465,
    ", I d": 466,
    "-trade, I assure ": 467,
    ".\nThe ": 468,
    ". D": 469,
    ". T": 470,
    ".”\n“": 471,
    "17": 472,
    ": ": 473,
    "Adam": 474,
    "Adams ": 475,
    "Adams left ": 476,
    "Adams left his ": 477,
    "Austen’s b": 478,
    "Bro": 479,
    "Brow": 480,
    "Con": 481,
    "Dec": 482,
    "Decemb": 483,
    "El": 484,
    "Fa": 485,
    "I am ": 486,
    "Jo": 487,
    "Jane’s ": 488,
    "Jefferson’s ": 489,
    "Joh": 490,
    "John ": 491,
    "John Adams left his ": 492,
    "Lad": 493,
    "Lady ": 494,
    "Mrs. ": 495,
    "Pla": 496,
    "Publi": 497,
    "St": 498,
    "Stu": 499,
    "Stuar": 500,
    "Wh": 501,
    "ab": 502,
    "ade": 503,
    "as": 504,
    "as ": 505,
    "ativ": 506,
    "al of ": 507,
    "al of Mr": 508,
    "aliz": 509,
    "ally about ": 510,
    "ams": 511,
    "anger": 512,
    "ant": 513,
    "any ": 514,
    "ance of ": 515,
    "angerous ": 516,
    "ate ": 517,
    "ated": 518,
    "atri": 519,
    "be ": 520,
    "bi": 521,
    "bt": 522,
    "beli": 523,
    "believ": 524,
    "brary": 525,
    "cer": 526,
    "ces": 527,
    "ces ": 528,
    "ck ": 529,
    "cep": 530,
    "cept": 531,
    "choo": 532,
    "chiatri": 533,
    "childho": 534,
    "childhoo": 535,
    "consequen": 536,
    "consid": 537,
    "duc": 538,
    "d o": 539,
    "day ": 540,
    "decla": 541,
    "dis": 542,
    "el ": 543,
    "eth": 544,
    "ew": 545,
    "ex": 546,
    "e the ": 547,
    "ect": 548,
    "ect of ": 549,
    "ed to ": 550,
    "ed by": 551,
    "emp": 552,
    "enti": 553,
    "en f": 554,
    "en in ": 555,
    "engag": 556,
    "ental ": 557,
    "ential": 558,
    "erest": 559,
    "ersu": 560,
    "er m": 561,
    "er se": 562,
    "er cou": 563,
    "er coun": 564,
    "er count": 565,
    "er country": 566,
    "eresting": 567,
    "ersuade": 568,
    "estion": 569,
    "es of the ": 570,
    "es of the day": 571,
    "estions a": 572,
    "ething ": 573,
    "even": 574,
    "fin": 575,
    "fles": 576,
    "fo": 577,
    "f you ": 578,
    "fath": 579,
    "flesh": 580,
    "freedom and ": 581,
    "ge ": 582,
    "gover": 583,
    "govern": 584,
    "governess": 585,
    "he": 586,
    "hear": 587,
    "hom": 588,
    "here ": 589,
    "human flesh": 590,
    "ial": 591,
    "id": 592,
    "ids ": 593,
    "ies": 594,
    "imp": 595,
    "in that ": 596,
    "ine ": 597,
    "insti": 598,
    "independence": 599,
    "ing at the ": 600,
    "ing p": 601,
    "inten": 602,
    "interesting": 603,
    "iry ": 604,
    "is no ": 605,
    "is no les": 606,
    "is no less ": 607,
    "kids ": 608,
    "lar": 609,
    "last ": 610,
    "lave": 611,
    "lim": 612,
    "lit": 613,
    "life, ": 614,
    "min": 615,
    "mo": 616,
    "mon": 617,
    "make ": 618,
    "may ": 619,
    "moth": 620,
    "mother country": 621,
    "n, ": 622,
    "ning": 623,
    "n c": 624,
    "oll": 625,
    "olog": 626,
    "om ": 627,
    "omething ": 628,
    "one ": 629,
    "ook ": 630,
    "ory": 631,
    "persuade": 632,
    "pin": 633,
    "peak": 634,
    "psy": 635,
    "psychiatri": 636,
    "questions a": 637,
    "quiry ": 638,
    "ram": 639,
    "ruc": 640,
    "ry ": 641,
    "red": 642,
    "reet": 643,
    "rep": 644,
    "refus": 645,
    "refusal of Mr": 646,
    "riend": 647,
    "riv": 648,
    "s to ": 649,
    "s,": 650,
    "slave": 651,
    "seemed to ": 652,
    "self": 653,
    "shock ": 654,
    "show": 655,
    "showed": 656,
    "step": 657,
    "struc": 658,
    "such ": 659,
    "suffer ": 660,
    "t that ": 661,
    "ta": 662,
    "tt": 663,
    "tute ": 664,
    "ul": 665,
    "unlike ": 666,
    "wer": 667,
    "wh": 668,
    "what ": 669,
    "way": 670,
    "world ": 671,
    "writing ": 672,
    "year": 673
  },
  "itos": {
    "0": "\n",
    "1": " ",
    "2": "!",
    "3": "\"",
    "4": "$",
    "5": "&",
    "6": "'",
    "7": "(",
    "8": ")",
    "9": "*",
    "10": "+",
    "11": ",",
    "12": "-",
    "13": ".",
    "14": "/",
    "15": "0",
    "16": "1",
    "17": "2",
    "18": "3",
    "19": "4",
    "20": "5",
    "21": "6",
    "22": "7",
    "23": "8",
    "24": "9",
    "25": ":",
    "26": ";",
    "27": "=",
    "28": "?",
    "29": "@",
    "30": "A",
    "31": "B",
    "32": "C",
    "33": "D",
    "34": "E",
    "35": "F",
    "36": "G",
    "37": "H",
    "38": "I",
    "39": "J",
    "40": "K",
    "41": "L",
    "42": "M",
    "43": "N",
    "44": "O",
    "45": "P",
    "46": "Q",
    "47": "R",
    "48": "S",
    "49": "T",
    "50": "U",
    "51": "V",
    "52": "W",
    "53": "X",
    "54": "Y",
    "55": "Z",
    "56": "[",
    "57": "\\",
    "58": "]",
    "59": "^",
    "60": "_",
    "61": "`",
    "62": "a",
    "63": "b",
    "64": "c",
    "65": "d",
    "66": "e",
    "67": "f",
    "68": "g",
    "69": "h",
    "70": "i",
    "71": "j",
    "72": "k",
    "73": "l",
    "74": "m",
    "75": "n",
    "76": "o",
    "77": "p",
    "78": "q",
    "79": "r",
    "80": "s",
    "81": "t",
    "82": "u",
    "83": "v",
    "84": "w",
    "85": "x",
    "86": "y",
    "87": "z",
    "88": "|",
    "89": "~",
    "90": "£",
    "91": "©",
    "92": "ö",
    "93": "–",
    "94": "—",
    "95": "‘",
    "96": "’",
    "97": "“",
    "98": "”",
    "99": "•",
    "100": "<unk>",
    "101": "e ",
    "102": " t",
    "103": "in",
    "104": " a",
    "105": "s ",
    "106": " th",
    "107": "en",
    "108": "er",
    "109": "t ",
    "110": "d ",
    "111": "of",
    "112": " the ",
    "113": "on",
    "114": "y ",
    "115": "an",
    "116": "re",
    "117": ", ",
    "118": "or",
    "119": "ou",
    "120": "ing",
    "121": "la",
    "122": "es",
    "123": "of ",
    "124": ". ",
    "125": "al",
    "126": "o ",
    "127": "th",
    "128": "ti",
    "129": "er ",
    "130": "ar",
    "131": "li",
    "132": "de",
    "133": "se",
    "134": " an",
    "135": "ch",
    "136": "ri",
    "137": "ed",
    "138": "ing ",
    "139": "om",
    "140": "ll",
    "141": "pla",
    "142": "st",
    "143": "ed ",
    "144": "in ",
    "145": " a ",
    "146": " to ",
    "147": "ha",
    "148": "su",
    "149": "am",
    "150": "at",
    "151": "no",
    "152": "Jan",
    "153": "em",
    "154": "es ",
    "155": "for",
    "156": " and ",
    "157": "ce ",
    "158": "he ",
    "159": "ho",
    "160": "tion",
    "161": "’s ",
    "162": ".\n",
    "163": "at ",
    "164": "di",
    "165": "end",
    "166": "ent",
    "167": "hi",
    "168": "ir",
    "169": "ma",
    "170": "qu",
    "171": "wa",
    "172": " to",
    "173": "al ",
    "174": "bu",
    "175": "ev",
    "176": "her ",
    "177": "of the ",
    "178": "play ",
    "179": " all",
    "180": " as",
    "181": " at",
    "182": " that ",
    "183": "I ",
    "184": "an ",
    "185": "be",
    "186": "dep",
    "187": "e, ",
    "188": "ef",
    "189": "en ",
    "190": "it",
    "191": "k ",
    "192": "ld ",
    "193": "lo",
    "194": "ra",
    "195": "un",
    "196": "chi",
    "197": "depend",
    "198": "dependen",
    "199": "ec",
    "200": "ers",
    "201": "ic",
    "202": "is ",
    "203": "ld",
    "204": "oo",
    "205": "ro",
    "206": "si",
    "207": "tu",
    "208": "wor",
    "209": "In",
    "210": "Jane ",
    "211": "cu",
    "212": "da",
    "213": "ent ",
    "214": "gh",
    "215": "ith",
    "216": "m ",
    "217": "me",
    "218": "play",
    "219": "ust",
    "220": "''",
    "221": "Aust",
    "222": "The ",
    "223": "all",
    "224": "by ",
    "225": "but ",
    "226": "ce",
    "227": "cre",
    "228": "ch ",
    "229": "ess",
    "230": "fre",
    "231": "fu",
    "232": "her",
    "233": "hu",
    "234": "independen",
    "235": "n ",
    "236": "no ",
    "237": "out",
    "238": "pe",
    "239": "re ",
    "240": "se ",
    "241": "with",
    "242": "y a",
    "243": " s",
    "244": " and",
    "245": " the",
    "246": " to the ",
    "247": ". In",
    "248": "; ",
    "249": "Austen",
    "250": "Jane",
    "251": "Mr",
    "252": "ag",
    "253": "con",
    "254": "child",
    "255": "ds ",
    "256": "ear",
    "257": "e th",
    "258": "eff",
    "259": "erson",
    "260": "est",
    "261": "fic",
    "262": "for ",
    "263": "ght",
    "264": "is",
    "265": "it ",
    "266": "int",
    "267": "ke ",
    "268": "l ",
    "269": "lu",
    "270": "ly ",
    "271": "not ",
    "272": "on the ",
    "273": "ould ",
    "274": "out ",
    "275": "pl",
    "276": "s. ",
    "277": "sho",
    "278": "st ",
    "279": "s of ",
    "280": "sel",
    "281": "uc",
    "282": "ve ",
    "283": "was ",
    "284": "you",
    "285": " or",
    "286": " at the ",
    "287": "'s ",
    "288": ", I ",
    "289": "--",
    "290": "-t",
    "291": "Austen’s ",
    "292": "Jeff",
    "293": "Jefferson",
    "294": "ac",
    "295": "ation",
    "296": "ame ",
    "297": "ance ",
    "298": "and ",
    "299": "bli",
    "300": "br",
    "301": "co",
    "302": "day",
    "303": "et",
    "304": "edom",
    "305": "eft ",
    "306": "for the ",
    "307": "freedom",
    "308": "hat ",
    "309": "hum",
    "310": "human ",
    "311": "im",
    "312": "independence ",
    "313": "left ",
    "314": "les",
    "315": "lon",
    "316": "now",
    "317": "offic",
    "318": "po",
    "319": "pro",
    "320": "ps",
    "321": "rom",
    "322": "ry",
    "323": "rec",
    "324": "res",
    "325": "s a",
    "326": "sti",
    "327": "seem",
    "328": "ther",
    "329": "tim",
    "330": "ubli",
    "331": "ve",
    "332": "”\n",
    "333": " T",
    "334": " her ",
    "335": " ac",
    "336": " as ",
    "337": " at ",
    "338": " an ",
    "339": " as to the ",
    "340": " at all",
    "341": " thin",
    "342": "! ",
    "343": ", w",
    "344": "-tra",
    "345": "-trade",
    "346": ".”\n",
    "347": ". H",
    "348": ". P",
    "349": ". S",
    "350": "20",
    "351": "Em",
    "352": "Emma",
    "353": "ad",
    "354": "ak",
    "355": "ap",
    "356": "age ",
    "357": "ali",
    "358": "ally a",
    "359": "ary",
    "360": "bout ",
    "361": "by",
    "362": "but",
    "363": "c ",
    "364": "ck",
    "365": "com",
    "366": "childr",
    "367": "children",
    "368": "dam",
    "369": "dec",
    "370": "did ",
    "371": "ell",
    "372": "ep",
    "373": "e in",
    "374": "e t",
    "375": "ed in ",
    "376": "emb",
    "377": "eng",
    "378": "er c",
    "379": "f ",
    "380": "fa",
    "381": "fer ",
    "382": "ger",
    "383": "go",
    "384": "had ",
    "385": "have ",
    "386": "him ",
    "387": "his ",
    "388": "inc",
    "389": "ing of ",
    "390": "ir ",
    "391": "ite ",
    "392": "know",
    "393": "ly",
    "394": "lif",
    "395": "like ",
    "396": "log",
    "397": "long",
    "398": "my ",
    "399": "mean",
    "400": "nd ",
    "401": "not",
    "402": "opl",
    "403": "on ",
    "404": "ous ",
    "405": "par",
    "406": "peopl",
    "407": "quen",
    "408": "quite ",
    "409": "refu",
    "410": "right",
    "411": "rit",
    "412": "same ",
    "413": "s of",
    "414": "sequen",
    "415": "sid",
    "416": "suf",
    "417": "te ",
    "418": "t of ",
    "419": "tiv",
    "420": "ver",
    "421": "vo",
    "422": "would ",
    "423": "writ",
    "424": "words ",
    "425": "you ",
    "426": " but ",
    "427": " c",
    "428": " ho",
    "429": " of ",
    "430": " offic",
    "431": " peopl",
    "432": " w",
    "433": " af",
    "434": " am ",
    "435": " a d",
    "436": " a f",
    "437": " a s",
    "438": " and the ",
    "439": " and p",
    "440": " and s",
    "441": " and prom",
    "442": " and promo",
    "443": " and promot",
    "444": " and promoted",
    "445": " as an",
    "446": " assu",
    "447": " as to the g",
    "448": " assure ",
    "449": " she ",
    "450": " tal",
    "451": " tim",
    "452": " tho",
    "453": " thou",
    "454": " their ",
    "455": " think",
    "456": " those ",
    "457": " thought",
    "458": " to play ",
    "459": "'' ",
    "460": ", at all",
    "461": ", 20",
    "462": ", I",
    "463": ", but ",
    "464": ", 200",
    "465": ", I assure ",
    "466": ", I d",
    "467": "-trade, I assure ",
    "468": ".\nThe ",
    "469": ". D",
    "470": ". T",
    "471": ".”\n“",
    "472": "17",
    "473": ": ",
    "474": "Adam",
    "475": "Adams ",
    "476": "Adams left ",
    "477": "Adams left his ",
    "478": "Austen’s b",
    "479": "Bro",
    "480": "Brow",
    "481": "Con",
    "482": "Dec",
    "483": "Decemb",
    "484": "El",
    "485": "Fa",
    "486": "I am ",
    "487": "Jo",
    "488": "Jane’s ",
    "489": "Jefferson’s ",
    "490": "Joh",
    "491": "John ",
    "492": "John Adams left his ",
    "493": "Lad",
    "494": "Lady ",
    "495": "Mrs. ",
    "496": "Pla",
    "497": "Publi",
    "498": "St",
    "499": "Stu",
    "500": "Stuar",
    "501": "Wh",
    "502": "ab",
    "503": "ade",
    "504": "as",
    "505": "as ",
    "506": "ativ",
    "507": "al of ",
    "508": "al of Mr",
    "509": "aliz",
    "510": "ally about ",
    "511": "ams",
    "512": "anger",
    "513": "ant",
    "514": "any ",
    "515": "ance of ",
    "516": "angerous ",
    "517": "ate ",
    "518": "ated",
    "519": "atri",
    "520": "be ",
    "521": "bi",
    "522": "bt",
    "523": "beli",
    "524": "believ",
    "525": "brary",
    "526": "cer",
    "527": "ces",
    "528": "ces ",
    "529": "ck ",
    "530": "cep",
    "531": "cept",
    "532": "choo",
    "533": "chiatri",
    "534": "childho",
    "535": "childhoo",
    "536": "consequen",
    "537": "consid",
    "538": "duc",
    "539": "d o",
    "540": "day ",
    "541": "decla",
    "542": "dis",
    "543": "el ",
    "544": "eth",
    "545": "ew",
    "546": "ex",
    "547": "e the ",
    "548": "ect",
    "549": "ect of ",
    "550": "ed to ",
    "551": "ed by",
    "552": "emp",
    "553": "enti",
    "554": "en f",
    "555": "en in ",
    "556": "engag",
    "557": "ental ",
    "558": "ential",
    "559": "erest",
    "560": "ersu",
    "561": "er m",
    "562": "er se",
    "563": "er cou",
    "564": "er coun",
    "565": "er count",
    "566": "er country",
    "567": "eresting",
    "568": "ersuade",
    "569": "estion",
    "570": "es of the ",
    "571": "es of the day",
    "572": "estions a",
    "573": "ething ",
    "574": "even",
    "575": "fin",
    "576": "fles",
    "577": "fo",
    "578": "f you ",
    "579": "fath",
    "580": "flesh",
    "581": "freedom and ",
    "582": "ge ",
    "583": "gover",
    "584": "govern",
    "585": "governess",
    "586": "he",
    "587": "hear",
    "588": "hom",
    "589": "here ",
    "590": "human flesh",
    "591": "ial",
    "592": "id",
    "593": "ids ",
    "594": "ies",
    "595": "imp",
    "596": "in that ",
    "597": "ine ",
    "598": "insti",
    "599": "independence",
    "600": "ing at the ",
    "601": "ing p",
    "602": "inten",
    "603": "interesting",
    "604": "iry ",
    "605": "is no ",
    "606": "is no les",
    "607": "is no less ",
    "608": "kids ",
    "609": "lar",
    "610": "last ",
    "611": "lave",
    "612": "lim",
    "613": "lit",
    "614": "life, ",
    "615": "min",
    "616": "mo",
    "617": "mon",
    "618": "make ",
    "619": "may ",
    "620": "moth",
    "621": "mother country",
    "622": "n, ",
    "623": "ning",
    "624": "n c",
    "625": "oll",
    "626": "olog",
    "627": "om ",
    "628": "omething ",
    "629": "one ",
    "630": "ook ",
    "631": "ory",
    "632": "persuade",
    "633": "pin",
    "634": "peak",
    "635": "psy",
    "636": "psychiatri",
    "637": "questions a",
    "638": "quiry ",
    "639": "ram",
    "640": "ruc",
    "641": "ry ",
    "642": "red",
    "643": "reet",
    "644": "rep",
    "645": "refus",
    "646": "refusal of Mr",
    "647": "riend",
    "648": "riv",
    "649": "s to ",
    "650": "s,",
    "651": "slave",
    "652": "seemed to ",
    "653": "self",
    "654": "shock ",
    "655": "show",
    "656": "showed",
    "657": "step",
    "658": "struc",
    "659": "such ",
    "660": "suffer ",
    "661": "t that ",
    "662": "ta",
    "663": "tt",
    "664": "tute ",
    "665": "ul",
    "666": "unlike ",
    "667": "wer",
    "668": "wh",
    "669": "what ",
    "670": "way",
    "671": "world ",
    "672": "writing ",
    "673": "year"
  },
  "unk_id": 100
}